FB8
28C
D2D
07D
3A0
0FD
158
30C
272
184
F82
D86
0A9
13F
035
360
EA7
50C
FA3
06A
06C
186
138
D14
F65
DE6
0CC
029
1B4
EB9
E33
245
3AC
FDA
FC5
127
269
223
F3B
08C
4D4
E33
FE1
FA6
267
E8D
E1A
0EB
07A
FDF
E23
EFC
DEF
369
0C9
11F
DDE
062
C6C
E36
08E
B56
061
E63
B40
0CC
06C
BDA
041
03E
086
DF3
F78
EAE
FAC
2D6
079
078
ECE
2B9
181
F3F
044
007
09F
163
F81
343
2E9
21E
F4B
FE4
01C
ECD
EC8
004
F1A
54C
EFD
F4F
302
D01
2B9
C82
FD6
0C9
30F
F4A
DAA
344
FB6
2C6
ED3
32F
EC4
49B
CE2
1CA
2BA
F29
FB2
F82
0DB
3EB
E26
233
F1B
1C9
E95
EAF
0F9
11A
EF8
020
FBF
2DD
0FD
1D6
008
12E
EE0
F2D
F26
1B4
023
18D
FCE
E3C
152
042
169
0AA
10A
17A
EBD
F15
11C
FCC
06D
EB3
EE3
0A6
040
FA6
0E9
0D8
116
EF5
EF3
10C
0B3
043
036
C0C
FCF
C5E
FCE
F31
2BB
0C7
DD7
2AF
FBB
0ED
131
E33
F96
2E9
E38
FEC
002
10E
1A8
ED4
1F4
BBC
018
F39
0B4
F8F
09F
1D9
CAC
227
45A
C9C
128
AF6
F45
B69
1D7
BF5
454
06A
09D
27F
F36
EC7
262
2B0
F64
E4D
E07
02F
07D
E73
163
2B2
F69
231
F74
10D
447
E66
01C
1D4
FD0
EE6
E6B
303
FCB
F12
068
358
E66
09A
F25
043
EAD
DF3
178
06F
E1C
FDD
FBA
2B3
0A2
1BE
009
12E
E28
F47
F61
103
1F6
FF2
137
C1A
E9F
3D8
188
06F
FCC
0CA
9DC
185
277
90D
1CA
9E3
B36
F10
22B
976
246
14A
10B
264
EB0
D5E
1D7
3C0
ABE
D3D
D33
BB2
ABB
CC0
416
308
D39
18B
EF8
15A
535
A77
FC3
41A
E6C
E4E
DB5
3E2
137
EA2
167
F9A
D85
1FE
11C
F31
D14
013
EBC
0FC
120
CEA
12A
CCA
E68
EBA
1CA
E71
16F
0FD
143
183
00B
310
BBA
E27
311
0A4
266
266
1FD
27A
E7E
A8E
0E1
018
040
2BB
D71
32F
FA0
F16
0C0
1A0
211
B0D
FC3
F66
FBC
E9B
385
EFF
EFF
37B
43D
13B
DA3
FA7
38B
20F
FB4
0BA
3CE
F04
FBD
DD1
31A
F14
F34
F61
FB5
2A5
F37
DEB
121
DA7
1FC
BDF
029
0BA
19D
F0C
E10
0DE
064
045
D3A
1D9
FE9
22B
E40
1AA
1F3
EA4
147
005
DFE
CDB
09F
227
0FC
171
047
128
C02
E37
22E
CC3
093
E08
C8B
083
055
BF6
155
06D
0DB
DC6
C82
3E7
1F2
1CB
373
B1E
03C
BF4
059
E4D
53E
0F3
BA3
5CC
E30
57D
1E8
2A1
ED7
6AA
CEB
0CE
057
049
FF4
EF5
F06
170
FDB
3E3
F5F
3EF
0AA
024
DB0
F27
0BF
F0F
010
1EC
F5A
3E4
020
DCB
0D9
F6C
FAA
EC3
F1E
076
DAD
045
05F
046
08C
065
03D
0BF
FFB
E23
023
013
EE8
0E0
FA3
03C
DFF
006
FC7
002
074
EB9
008
EAA
016
024
019
F24
DA3
059
01C
F60
FC1
07A
084
0E8
EDF
08E
0F2
E7C
02D
FDC
0E3
D82
D57
04C
117
F51
F72
FE3
ED3
046
FA6
056
E84
F3A
E9D
EE0
FF6
DD9
0E1
F71
E9D
015
136
E8D
074
FEE
FA3
F2A
DF5
FF0
F95
06A
036
FFA
EFE
04C
050
F2B
01B
FD3
FDD
01D
DE5
05F
077
FFE
D9E
010
FB1
EE7
EF6
FEE
EB6
044
011
027
040
F68
039
FA1
03E
00D
061
FE7
EED
044
FA0
0B2
FFA
05E
FDF
081
EDA
061
039
006
EA2
F4B
007
07F
F26
023
E6A
01F
EEF
D46
FE5
050
F01
FF9
E98
08E
025
FFB
F50
FDC
ECA
E3B
E3D
02F
0DC
018
F5C
E82
03D
FEC
04B
030
07B
0BF
F75
E3B
039
FE0
12C
FC4
F8D
06A
110
F7E
0AA
05E
057
EE4
EB9
02D
05D
FEF
00F
F34
FCA
F2C
023
EEA
031
06E
F2A
029
FD2
01D
01E
FAC
054
027
F77
FFD
FB1
047
04E
FAC
FFC
F21
013
FB5
FFA
003
02B
02E
F6D
012
054
FA5
FCC
F1E
004
E6B
FE3
F5D
060
FD9
FFF
01D
E73
DF8
1CC
10F
FE4
E58
BFC
FF2
00C
CFD
03D
1ED
008
108
ED6
0F7
159
E15
0F1
071
0F7
CE0
C06
130
E87
FDA
FEF
053
F9D
FFF
F1B
FFE
F57
E2B
005
00F
ED3
FE6
E8B
042
FF5
FF5
F1D
01B
EA1
EE8
EFA
00C
00F
FE7
FF6
FF7
FD1
04B
FFA
03E
FCB
FF7
F6A
01C
020
F53
FFF
F5E
FBE
FEA
057
F69
037
FF3
FE5
00A
01B
000
008
FCF
FAD
016
007
FD8
FA6
FD2
FD5
017
008
FC5
FF3
FAF
FD0
FE1
020
FD7
FE9
FDA
FEE
FFD
118
E6B
058
040
DA6
067
FA4
FCC
D2E
F53
F62
059
FE1
EC9
0CE
EBF
FA2
F48
0D7
F7F
00C
F91
FA2
01F
028
F39
09D
043
F34
FE4
F81
F75
F66
F60
02E
0D7
FE9
005
FFE
F79
06E
F4C
014
020
FE5
F98
F91
0B8
F81
FBE
CCE
E52
FF0
ED7
D07
088
FBD
206
E4C
D80
0A8
086
C9E
088
13E
EF5
D56
E42
0A8
C9B
CBC
E46
EBE
FD4
DA9
E50
FD1
E35
044
E2B
029
055
066
DAD
DBA
025
094
064
EAE
FA9
E7E
091
D87
095
05A
E7E
060
FC1
FA3
F71
03D
004
02B
039
024
05A
F2D
F57
034
F4D
044
F86
F96
016
02E
F28
01E
FED
01C
F90
043
FD6
FC8
FBA
FB2
04C
FE8
013
FE2
003
F97
FDB
03F
F78
01F
F7A
FC0
FBF
01D
F8C
027
FDF
FF0
FE2
153
CFF
ECB
0AD
00A
186
F01
1D1
0AE
EEA
D8D
E48
07A
EAA
133
1C5
F62
1B8
19B
DBC
0CF
F7C
F56
ED0
