0C6F
0052
3A5D
3CA0
38CB
3ACB
3CE7
3EA4
08B0
3AE1
0444
2FB1
2B14
31E4
0834
3BE0
3F75
06F4
3FE7
058D
32AE
0BD0
3AE3
097C
37B5
3CFC
367E
02D1
36B3
3326
088A
35E8
39C3
0C65
3565
3C94
0759
08BE
39E9
3AF0
335B
0CCF
3B98
05FC
3970
0529
0BF3
3218
0843
31E6
3A82
3C0A
3BD7
0575
057F
03A2
3D38
3A8C
392A
0623
07B0
0E71
399D
37D4
3639
2F68
04CA
336B
03A4
0350
0E83
359E
3503
022A
3B2F
30F0
011F
039C
01A1
0106
3ED6
076B
3F36
3F47
0713
3930
3B1C
0E7C
0A36
3A82
08CD
3641
3383
3617
3E32
3993
3C05
3BED
03A3
03BF
09C2
0FD5
3480
33BC
3A3E
0408
32D9
342E
0693
3811
08F2
3465
37CC
0C7B
35AF
05A3
3F81
3D56
3C47
07E8
